{
  "config": {
    "vocab_size": 3000,
    "max_length": 512,
    "pad_token": "<pad>",
    "bos_token": "<bos>",
    "eos_token": "<eos>",
    "unk_token": "<unk>",
    "mask_token": "<mask>",
    "lowercase": true,
    "normalization": "nfc",
    "min_frequency": 2
  },
  "token_to_id": {
    "<pad>": 0,
    "<bos>": 1,
    "<eos>": 2,
    "<unk>": 3,
    "<mask>": 4,
    "-": 5,
    "a": 6,
    "ac": 7,
    "ack": 8,
    "ad": 9,
    "ain": 10,
    "al": 11,
    "all": 12,
    "am": 13,
    "amb": 14,
    "ambient": 15,
    "an": 16,
    "ap": 17,
    "app": 18,
    "ar": 19,
    "arm": 20,
    "as": 21,
    "at": 22,
    "ati": 23,
    "ation": 24,
    "b": 25,
    "back": 26,
    "blu": 27,
    "blues": 28,
    "c": 29,
    "capp": 30,
    "capped": 31,
    "ce": 32,
    "cer": 33,
    "ch": 34,
    "classic": 35,
    "classical": 36,
    "cor": 37,
    "country": 38,
    "d": 39,
    "den": 40,
    "der": 41,
    "ding": 42,
    "ds": 43,
    "e": 44,
    "ea": 45,
    "eat": 46,
    "ed": 47,
    "el": 48,
    "elec": 49,
    "elect": 50,
    "electron": 51,
    "electronic": 52,
    "en": 53,
    "ending": 54,
    "ent": 55,
    "er": 56,
    "es": 57,
    "et": 58,
    "f": 59,
    "ff": 60,
    "fol": 61,
    "folk": 62,
    "for": 63,
    "fu": 64,
    "ful": 65,
    "fully": 66,
    "g": 67,
    "gg": 68,
    "gh": 69,
    "gr": 70,
    "h": 71,
    "her": 72,
    "hi": 73,
    "hip": 74,
    "i": 75,
    "ian": 76,
    "ic": 77,
    "id": 78,
    "ient": 79,
    "il": 80,
    "im": 81,
    "in": 82,
    "ing": 83,
    "ining": 84,
    "it": 85,
    "j": 86,
    "ja": 87,
    "jaz": 88,
    "jazz": 89,
    "k": 90,
    "ke": 91,
    "ker": 92,
    "king": 93,
    "l": 94,
    "la": 95,
    "lan": 96,
    "lass": 97,
    "lassic": 98,
    "le": 99,
    "lec": 100,
    "li": 101,
    "ling": 102,
    "lo": 103,
    "lu": 104,
    "ly": 105,
    "m": 106,
    "met": 107,
    "metal": 108,
    "ming": 109,
    "n": 110,
    "o": 111,
    "ol": 112,
    "on": 113,
    "oo": 114,
    "op": 115,
    "or": 116,
    "orch": 117,
    "orche": 118,
    "orchest": 119,
    "orchestr": 120,
    "orchestral": 121,
    "ot": 122,
    "ou": 123,
    "oun": 124,
    "ount": 125,
    "ountry": 126,
    "out": 127,
    "ove": 128,
    "ow": 129,
    "p": 130,
    "per": 131,
    "pop": 132,
    "q": 133,
    "r": 134,
    "rac": 135,
    "rack": 136,
    "re": 137,
    "regg": 138,
    "regga": 139,
    "reggae": 140,
    "ri": 141,
    "ring": 142,
    "ro": 143,
    "roc": 144,
    "rock": 145,
    "ron": 146,
    "ry": 147,
    "s": 148,
    "ss": 149,
    "ssi": 150,
    "ssive": 151,
    "st": 152,
    "stor": 153,
    "t": 154,
    "th": 155,
    "ti": 156,
    "ting": 157,
    "tion": 158,
    "tist": 159,
    "tu": 160,
    "u": 161,
    "un": 162,
    "unn": 163,
    "v": 164,
    "ve": 165,
    "vi": 166,
    "ving": 167,
    "w": 168,
    "x": 169,
    "y": 170,
    "ying": 171,
    "z": 172,
    "Ġ": 173,
    "Ġa": 174,
    "Ġab": 175,
    "Ġabove": 176,
    "Ġabst": 177,
    "Ġabstrac": 178,
    "Ġabstract": 179,
    "Ġac": 180,
    "Ġacou": 181,
    "Ġacoust": 182,
    "Ġacoustic": 183,
    "Ġacro": 184,
    "Ġacross": 185,
    "Ġagg": 186,
    "Ġaggre": 187,
    "Ġaggressive": 188,
    "Ġan": 189,
    "Ġanc": 190,
    "Ġancient": 191,
    "Ġar": 192,
    "Ġart": 193,
    "Ġartist": 194,
    "Ġartw": 195,
    "Ġartwor": 196,
    "Ġartwork": 197,
    "Ġat": 198,
    "Ġau": 199,
    "Ġautu": 200,
    "Ġautum": 201,
    "Ġautumn": 202,
    "Ġb": 203,
    "Ġba": 204,
    "Ġback": 205,
    "Ġbackgr": 206,
    "Ġbackgroun": 207,
    "Ġbackground": 208,
    "Ġbaker": 209,
    "Ġbal": 210,
    "Ġball": 211,
    "Ġballa": 212,
    "Ġballad": 213,
    "Ġbass": 214,
    "Ġbea": 215,
    "Ġbeat": 216,
    "Ġbeau": 217,
    "Ġbeauti": 218,
    "Ġbeautiful": 219,
    "Ġbeautifully": 220,
    "Ġbi": 221,
    "Ġbir": 222,
    "Ġbird": 223,
    "Ġblo": 224,
    "Ġbloo": 225,
    "Ġblooming": 226,
    "Ġblu": 227,
    "Ġblue": 228,
    "Ġboo": 229,
    "Ġbook": 230,
    "Ġbooks": 231,
    "Ġbre": 232,
    "Ġbree": 233,
    "Ġbreez": 234,
    "Ġbreeze": 235,
    "Ġbu": 236,
    "Ġbuil": 237,
    "Ġbuilding": 238,
    "Ġbus": 239,
    "Ġbush": 240,
    "Ġbushes": 241,
    "Ġbust": 242,
    "Ġbustling": 243,
    "Ġby": 244,
    "Ġc": 245,
    "Ġca": 246,
    "Ġcake": 247,
    "Ġcal": 248,
    "Ġcalm": 249,
    "Ġcam": 250,
    "Ġcamper": 251,
    "Ġcan": 252,
    "Ġcanv": 253,
    "Ġcanvas": 254,
    "Ġcap": 255,
    "Ġcaptu": 256,
    "Ġcapturing": 257,
    "Ġcar": 258,
    "Ġcast": 259,
    "Ġcasting": 260,
    "Ġcat": 261,
    "Ġcatch": 262,
    "Ġcatchy": 263,
    "Ġch": 264,
    "Ġche": 265,
    "Ġchef": 266,
    "Ġchil": 267,
    "Ġchild": 268,
    "Ġcit": 269,
    "Ġcity": 270,
    "Ġcl": 271,
    "Ġclassic": 272,
    "Ġcle": 273,
    "Ġclear": 274,
    "Ġclin": 275,
    "Ġclinic": 276,
    "Ġclou": 277,
    "Ġclouds": 278,
    "Ġco": 279,
    "Ġcoff": 280,
    "Ġcoffe": 281,
    "Ġcoffee": 282,
    "Ġcol": 283,
    "Ġcolor": 284,
    "Ġcolorful": 285,
    "Ġcom": 286,
    "Ġcomfor": 287,
    "Ġcomfort": 288,
    "Ġcomforta": 289,
    "Ġcomfortab": 290,
    "Ġcomfortable": 291,
    "Ġcon": 292,
    "Ġconcer": 293,
    "Ġconcert": 294,
    "Ġcond": 295,
    "Ġcondu": 296,
    "Ġconduc": 297,
    "Ġconducting": 298,
    "Ġcou": 299,
    "Ġcouch": 300,
    "Ġcountry": 301,
    "Ġcountrys": 302,
    "Ġcountrysid": 303,
    "Ġcountryside": 304,
    "Ġcoz": 305,
    "Ġcozy": 306,
    "Ġcrack": 307,
    "Ġcrackling": 308,
    "Ġcry": 309,
    "Ġcryst": 310,
    "Ġcrystal": 311,
    "Ġcy": 312,
    "Ġcyc": 313,
    "Ġcycli": 314,
    "Ġcyclist": 315,
    "Ġd": 316,
    "Ġda": 317,
    "Ġdan": 318,
    "Ġdance": 319,
    "Ġdancer": 320,
    "Ġdaw": 321,
    "Ġdawn": 322,
    "Ġday": 323,
    "Ġde": 324,
    "Ġdecor": 325,
    "Ġdecorat": 326,
    "Ġdecorating": 327,
    "Ġdep": 328,
    "Ġdepth": 329,
    "Ġdes": 330,
    "Ġdesc": 331,
    "Ġdescending": 332,
    "Ġdesk": 333,
    "Ġdi": 334,
    "Ġdistor": 335,
    "Ġdistortion": 336,
    "Ġdiving": 337,
    "Ġdo": 338,
    "Ġdoc": 339,
    "Ġdoct": 340,
    "Ġdoctor": 341,
    "Ġdog": 342,
    "Ġdr": 343,
    "Ġdram": 344,
    "Ġdramat": 345,
    "Ġdramatic": 346,
    "Ġdri": 347,
    "Ġdriving": 348,
    "Ġe": 349,
    "Ġele": 350,
    "Ġeleg": 351,
    "Ġelegan": 352,
    "Ġelegant": 353,
    "Ġelegantly": 354,
    "Ġem": 355,
    "Ġemo": 356,
    "Ġemotion": 357,
    "Ġemotional": 358,
    "Ġen": 359,
    "Ġener": 360,
    "Ġenerg": 361,
    "Ġenergy": 362,
    "Ġex": 363,
    "Ġexam": 364,
    "Ġexamining": 365,
    "Ġexp": 366,
    "Ġexper": 367,
    "Ġexperim": 368,
    "Ġexperiment": 369,
    "Ġexpla": 370,
    "Ġexplaining": 371,
    "Ġf": 372,
    "Ġfarm": 373,
    "Ġfarmer": 374,
    "Ġfi": 375,
    "Ġfiel": 376,
    "Ġfield": 377,
    "Ġfil": 378,
    "Ġfille": 379,
    "Ġfilled": 380,
    "Ġfire": 381,
    "Ġfis": 382,
    "Ġfisher": 383,
    "Ġfisherm": 384,
    "Ġfisherman": 385,
    "Ġflo": 386,
    "Ġflow": 387,
    "Ġflower": 388,
    "Ġfly": 389,
    "Ġflying": 390,
    "Ġfor": 391,
    "Ġg": 392,
    "Ġgar": 393,
    "Ġgarden": 394,
    "Ġgardener": 395,
    "Ġgent": 396,
    "Ġgently": 397,
    "Ġglass": 398,
    "Ġgli": 399,
    "Ġgliding": 400,
    "Ġgo": 401,
    "Ġgoal": 402,
    "Ġgol": 403,
    "Ġgolden": 404,
    "Ġgou": 405,
    "Ġgour": 406,
    "Ġgourmet": 407,
    "Ġgrac": 408,
    "Ġgrace": 409,
    "Ġgracefully": 410,
    "Ġgro": 411,
    "Ġgroove": 412,
    "Ġgu": 413,
    "Ġguit": 414,
    "Ġguitar": 415,
    "Ġh": 416,
    "Ġhapp": 417,
    "Ġhappi": 418,
    "Ġhappily": 419,
    "Ġhappy": 420,
    "Ġhea": 421,
    "Ġheav": 422,
    "Ġheavy": 423,
    "Ġhi": 424,
    "Ġhiker": 425,
    "Ġhop": 426,
    "Ġhor": 427,
    "Ġhori": 428,
    "Ġhoriz": 429,
    "Ġhorizon": 430,
    "Ġim": 431,
    "Ġimp": 432,
    "Ġimpro": 433,
    "Ġimprovi": 434,
    "Ġimprovis": 435,
    "Ġimprovisation": 436,
    "Ġin": 437,
    "Ġint": 438,
    "Ġinto": 439,
    "Ġj": 440,
    "Ġjo": 441,
    "Ġjoy": 442,
    "Ġjoyfully": 443,
    "Ġk": 444,
    "Ġke": 445,
    "Ġkey": 446,
    "Ġkit": 447,
    "Ġkitch": 448,
    "Ġkitchen": 449,
    "Ġl": 450,
    "Ġla": 451,
    "Ġlab": 452,
    "Ġlaid": 453,
    "Ġlake": 454,
    "Ġlan": 455,
    "Ġlands": 456,
    "Ġlandsc": 457,
    "Ġlandscap": 458,
    "Ġlandscape": 459,
    "Ġle": 460,
    "Ġless": 461,
    "Ġlesson": 462,
    "Ġli": 463,
    "Ġlib": 464,
    "Ġlibr": 465,
    "Ġlibrar": 466,
    "Ġlibrary": 467,
    "Ġligh": 468,
    "Ġlighting": 469,
    "Ġlin": 470,
    "Ġline": 471,
    "Ġliving": 472,
    "Ġly": 473,
    "Ġlyr": 474,
    "Ġlyric": 475,
    "Ġlyrics": 476,
    "Ġm": 477,
    "Ġma": 478,
    "Ġmaj": 479,
    "Ġmajor": 480,
    "Ġmassive": 481,
    "Ġme": 482,
    "Ġmeal": 483,
    "Ġmech": 484,
    "Ġmechan": 485,
    "Ġmechanic": 486,
    "Ġmed": 487,
    "Ġmedit": 488,
    "Ġmeditation": 489,
    "Ġmel": 490,
    "Ġmelan": 491,
    "Ġmelanch": 492,
    "Ġmelanchol": 493,
    "Ġmelancholic": 494,
    "Ġmelo": 495,
    "Ġmelod": 496,
    "Ġmelody": 497,
    "Ġmin": 498,
    "Ġminor": 499,
    "Ġmo": 500,
    "Ġmoder": 501,
    "Ġmodern": 502,
    "Ġmount": 503,
    "Ġmountain": 504,
    "Ġmu": 505,
    "Ġmus": 506,
    "Ġmusic": 507,
    "Ġmusician": 508,
    "Ġn": 509,
    "Ġni": 510,
    "Ġnigh": 511,
    "Ġnight": 512,
    "Ġno": 513,
    "Ġnov": 514,
    "Ġnovel": 515,
    "Ġo": 516,
    "Ġoce": 517,
    "Ġocean": 518,
    "Ġof": 519,
    "Ġoff": 520,
    "Ġoffic": 521,
    "Ġoffice": 522,
    "Ġol": 523,
    "Ġold": 524,
    "Ġon": 525,
    "Ġov": 526,
    "Ġover": 527,
    "Ġp": 528,
    "Ġpac": 529,
    "Ġpaci": 530,
    "Ġpacif": 531,
    "Ġpacific": 532,
    "Ġpain": 533,
    "Ġpaint": 534,
    "Ġpainter": 535,
    "Ġpainting": 536,
    "Ġpar": 537,
    "Ġpark": 538,
    "Ġpat": 539,
    "Ġpatient": 540,
    "Ġpe": 541,
    "Ġpeac": 542,
    "Ġpeace": 543,
    "Ġpeaceful": 544,
    "Ġpeacefully": 545,
    "Ġpeop": 546,
    "Ġpeople": 547,
    "Ġper": 548,
    "Ġperfor": 549,
    "Ġperforming": 550,
    "Ġpers": 551,
    "Ġperson": 552,
    "Ġph": 553,
    "Ġphot": 554,
    "Ġphoto": 555,
    "Ġphotogr": 556,
    "Ġphotograp": 557,
    "Ġphotographer": 558,
    "Ġphr": 559,
    "Ġphras": 560,
    "Ġphrasing": 561,
    "Ġpi": 562,
    "Ġpian": 563,
    "Ġpiano": 564,
    "Ġpie": 565,
    "Ġpiece": 566,
    "Ġpil": 567,
    "Ġpilot": 568,
    "Ġpla": 569,
    "Ġplan": 570,
    "Ġplane": 571,
    "Ġplay": 572,
    "Ġplayer": 573,
    "Ġplaying": 574,
    "Ġpre": 575,
    "Ġprep": 576,
    "Ġprepar": 577,
    "Ġpreparing": 578,
    "Ġpro": 579,
    "Ġprog": 580,
    "Ġprogre": 581,
    "Ġprogressi": 582,
    "Ġprogression": 583,
    "Ġq": 584,
    "Ġqu": 585,
    "Ġqui": 586,
    "Ġquiet": 587,
    "Ġr": 588,
    "Ġrac": 589,
    "Ġracing": 590,
    "Ġre": 591,
    "Ġreac": 592,
    "Ġreach": 593,
    "Ġreaching": 594,
    "Ġred": 595,
    "Ġref": 596,
    "Ġreflec": 597,
    "Ġreflecting": 598,
    "Ġrep": 599,
    "Ġrepa": 600,
    "Ġrepai": 601,
    "Ġrepairing": 602,
    "Ġrestor": 603,
    "Ġrestoring": 604,
    "Ġrh": 605,
    "Ġrhy": 606,
    "Ġrhyth": 607,
    "Ġrhythm": 608,
    "Ġri": 609,
    "Ġriding": 610,
    "Ġriff": 611,
    "Ġro": 612,
    "Ġroad": 613,
    "Ġroo": 614,
    "Ġroom": 615,
    "Ġros": 616,
    "Ġrose": 617,
    "Ġs": 618,
    "Ġsa": 619,
    "Ġsad": 620,
    "Ġsail": 621,
    "Ġsailb": 622,
    "Ġsailbo": 623,
    "Ġsailboat": 624,
    "Ġsc": 625,
    "Ġsci": 626,
    "Ġscien": 627,
    "Ġscientist": 628,
    "Ġscor": 629,
    "Ġscoring": 630,
    "Ġsh": 631,
    "Ġshel": 632,
    "Ġshelv": 633,
    "Ġshelves": 634,
    "Ġshop": 635,
    "Ġsing": 636,
    "Ġsinger": 637,
    "Ġsit": 638,
    "Ġsitting": 639,
    "Ġsk": 640,
    "Ġski": 641,
    "Ġskier": 642,
    "Ġskil": 643,
    "Ġskill": 644,
    "Ġskillfully": 645,
    "Ġsky": 646,
    "Ġslo": 647,
    "Ġslop": 648,
    "Ġslope": 649,
    "Ġsm": 650,
    "Ġsmoo": 651,
    "Ġsmooth": 652,
    "Ġsmoothly": 653,
    "Ġsn": 654,
    "Ġsnow": 655,
    "Ġsnowy": 656,
    "Ġso": 657,
    "Ġsoc": 658,
    "Ġsoccer": 659,
    "Ġsol": 660,
    "Ġsold": 661,
    "Ġsolo": 662,
    "Ġson": 663,
    "Ġsong": 664,
    "Ġsp": 665,
    "Ġspring": 666,
    "Ġst": 667,
    "Ġsta": 668,
    "Ġstag": 669,
    "Ġstage": 670,
    "Ġstar": 671,
    "Ġstarry": 672,
    "Ġstor": 673,
    "Ġstory": 674,
    "Ġstoryt": 675,
    "Ġstorytel": 676,
    "Ġstorytelling": 677,
    "Ġstre": 678,
    "Ġstreet": 679,
    "Ġstron": 680,
    "Ġstrong": 681,
    "Ġstu": 682,
    "Ġstuden": 683,
    "Ġstudent": 684,
    "Ġstudents": 685,
    "Ġstunn": 686,
    "Ġstunning": 687,
    "Ġsu": 688,
    "Ġsum": 689,
    "Ġsumm": 690,
    "Ġsummit": 691,
    "Ġsun": 692,
    "Ġsunn": 693,
    "Ġsunny": 694,
    "Ġsuns": 695,
    "Ġsunset": 696,
    "Ġsur": 697,
    "Ġsurf": 698,
    "Ġsurfer": 699,
    "Ġsw": 700,
    "Ġswa": 701,
    "Ġswaying": 702,
    "Ġswel": 703,
    "Ġswell": 704,
    "Ġswells": 705,
    "Ġswim": 706,
    "Ġswimm": 707,
    "Ġswimmer": 708,
    "Ġswing": 709,
    "Ġsy": 710,
    "Ġsym": 711,
    "Ġsymp": 712,
    "Ġsymph": 713,
    "Ġsymphon": 714,
    "Ġsymphony": 715,
    "Ġt": 716,
    "Ġtall": 717,
    "Ġte": 718,
    "Ġteac": 719,
    "Ġteacher": 720,
    "Ġtending": 721,
    "Ġth": 722,
    "Ġthe": 723,
    "Ġthr": 724,
    "Ġthrou": 725,
    "Ġthrough": 726,
    "Ġto": 727,
    "Ġtrack": 728,
    "Ġtre": 729,
    "Ġtree": 730,
    "Ġtrees": 731,
    "Ġtun": 732,
    "Ġtune": 733,
    "Ġty": 734,
    "Ġtyp": 735,
    "Ġtyping": 736,
    "Ġu": 737,
    "Ġun": 738,
    "Ġunder": 739,
    "Ġup": 740,
    "Ġupb": 741,
    "Ġupbeat": 742,
    "Ġvi": 743,
    "Ġvib": 744,
    "Ġvibes": 745,
    "Ġw": 746,
    "Ġwa": 747,
    "Ġwal": 748,
    "Ġwalking": 749,
    "Ġwarm": 750,
    "Ġwat": 751,
    "Ġwater": 752,
    "Ġwaters": 753,
    "Ġwave": 754,
    "Ġwed": 755,
    "Ġwedding": 756,
    "Ġwh": 757,
    "Ġwheat": 758,
    "Ġwi": 759,
    "Ġwin": 760,
    "Ġwind": 761,
    "Ġwinding": 762,
    "Ġwindow": 763,
    "Ġwindows": 764,
    "Ġwinn": 765,
    "Ġwinning": 766,
    "Ġwith": 767,
    "Ġwor": 768,
    "Ġworking": 769,
    "Ġwr": 770,
    "Ġwrit": 771,
    "Ġwriter": 772
  },
  "merges": [
    [
      "i",
      "n"
    ],
    [
      "in",
      "g"
    ],
    [
      "Ġ",
      "a"
    ],
    [
      "Ġ",
      "s"
    ],
    [
      "Ġ",
      "c"
    ],
    [
      "e",
      "r"
    ],
    [
      "Ġ",
      "w"
    ],
    [
      "Ġ",
      "p"
    ],
    [
      "t",
      "h"
    ],
    [
      "Ġ",
      "b"
    ],
    [
      "a",
      "r"
    ],
    [
      "l",
      "y"
    ],
    [
      "Ġ",
      "o"
    ],
    [
      "a",
      "n"
    ],
    [
      "r",
      "e"
    ],
    [
      "o",
      "r"
    ],
    [
      "Ġ",
      "g"
    ],
    [
      "Ġ",
      "in"
    ],
    [
      "Ġ",
      "d"
    ],
    [
      "Ġ",
      "m"
    ],
    [
      "Ġw",
      "i"
    ],
    [
      "Ġwi",
      "th"
    ],
    [
      "f",
      "u"
    ],
    [
      "fu",
      "l"
    ],
    [
      "l",
      "a"
    ],
    [
      "l",
      "e"
    ],
    [
      "o",
      "u"
    ],
    [
      "i",
      "c"
    ],
    [
      "a",
      "c"
    ],
    [
      "s",
      "t"
    ],
    [
      "a",
      "l"
    ],
    [
      "e",
      "n"
    ],
    [
      "a",
      "t"
    ],
    [
      "Ġ",
      "th"
    ],
    [
      "Ġth",
      "e"
    ],
    [
      "i",
      "l"
    ],
    [
      "Ġs",
      "t"
    ],
    [
      "i",
      "t"
    ],
    [
      "e",
      "t"
    ],
    [
      "Ġ",
      "f"
    ],
    [
      "ful",
      "ly"
    ],
    [
      "r",
      "o"
    ],
    [
      "Ġ",
      "t"
    ],
    [
      "Ġo",
      "n"
    ],
    [
      "o",
      "n"
    ],
    [
      "d",
      "ing"
    ],
    [
      "t",
      "ing"
    ],
    [
      "s",
      "s"
    ],
    [
      "y",
      "ing"
    ],
    [
      "u",
      "n"
    ],
    [
      "l",
      "i"
    ],
    [
      "a",
      "in"
    ],
    [
      "Ġp",
      "la"
    ],
    [
      "Ġc",
      "o"
    ],
    [
      "t",
      "i"
    ],
    [
      "l",
      "o"
    ],
    [
      "e",
      "s"
    ],
    [
      "a",
      "p"
    ],
    [
      "Ġpla",
      "ying"
    ],
    [
      "r",
      "ac"
    ],
    [
      "Ġ",
      "h"
    ],
    [
      "c",
      "h"
    ],
    [
      "Ġ",
      "re"
    ],
    [
      "ou",
      "n"
    ],
    [
      "Ġs",
      "k"
    ],
    [
      "Ġ",
      "e"
    ],
    [
      "Ġp",
      "e"
    ],
    [
      "oun",
      "t"
    ],
    [
      "m",
      "ing"
    ],
    [
      "e",
      "l"
    ],
    [
      "c",
      "e"
    ],
    [
      "d",
      "en"
    ],
    [
      "v",
      "ing"
    ],
    [
      "o",
      "p"
    ],
    [
      "Ġ",
      "ro"
    ],
    [
      "Ġw",
      "in"
    ],
    [
      "f",
      "or"
    ],
    [
      "Ġ",
      "li"
    ],
    [
      "Ġb",
      "u"
    ],
    [
      "Ġp",
      "er"
    ],
    [
      "Ġa",
      "c"
    ],
    [
      "Ġm",
      "ount"
    ],
    [
      "Ġmount",
      "ain"
    ],
    [
      "Ġa",
      "n"
    ],
    [
      "en",
      "t"
    ],
    [
      "Ġst",
      "re"
    ],
    [
      "Ġstre",
      "et"
    ],
    [
      "ap",
      "p"
    ],
    [
      "e",
      "a"
    ],
    [
      "Ġo",
      "ce"
    ],
    [
      "Ġoce",
      "an"
    ],
    [
      "r",
      "ing"
    ],
    [
      "Ġc",
      "h"
    ],
    [
      "o",
      "o"
    ],
    [
      "l",
      "ing"
    ],
    [
      "c",
      "er"
    ],
    [
      "ar",
      "m"
    ],
    [
      "un",
      "n"
    ],
    [
      "o",
      "w"
    ],
    [
      "g",
      "h"
    ],
    [
      "Ġm",
      "e"
    ],
    [
      "al",
      "l"
    ],
    [
      "f",
      "f"
    ],
    [
      "k",
      "e"
    ],
    [
      "d",
      "er"
    ],
    [
      "r",
      "y"
    ],
    [
      "Ġb",
      "ea"
    ],
    [
      "Ġbea",
      "u"
    ],
    [
      "Ġbeau",
      "ti"
    ],
    [
      "r",
      "i"
    ],
    [
      "Ġa",
      "b"
    ],
    [
      "Ġg",
      "ar"
    ],
    [
      "Ġgar",
      "den"
    ],
    [
      "Ġpe",
      "ac"
    ],
    [
      "Ġpeac",
      "e"
    ],
    [
      "Ġ",
      "q"
    ],
    [
      "Ġq",
      "u"
    ],
    [
      "Ġqu",
      "i"
    ],
    [
      "Ġqui",
      "et"
    ],
    [
      "Ġs",
      "w"
    ],
    [
      "Ġa",
      "r"
    ],
    [
      "Ġp",
      "ain"
    ],
    [
      "Ġsk",
      "y"
    ],
    [
      "v",
      "e"
    ],
    [
      "Ġm",
      "u"
    ],
    [
      "Ġmu",
      "s"
    ],
    [
      "Ġmus",
      "ic"
    ],
    [
      "Ġd",
      "o"
    ],
    [
      "Ġc",
      "ar"
    ],
    [
      "la",
      "ss"
    ],
    [
      "Ġt",
      "re"
    ],
    [
      "Ġper",
      "for"
    ],
    [
      "Ġperfor",
      "ming"
    ],
    [
      "Ġs",
      "h"
    ],
    [
      "Ġw",
      "at"
    ],
    [
      "Ġwat",
      "er"
    ],
    [
      "Ġs",
      "it"
    ],
    [
      "Ġsit",
      "ting"
    ],
    [
      "a",
      "d"
    ],
    [
      "Ġw",
      "arm"
    ],
    [
      "ti",
      "st"
    ],
    [
      "a",
      "s"
    ],
    [
      "Ġ",
      "n"
    ],
    [
      "Ġa",
      "t"
    ],
    [
      "Ġ",
      "la"
    ],
    [
      "Ġd",
      "an"
    ],
    [
      "o",
      "l"
    ],
    [
      "i",
      "an"
    ],
    [
      "k",
      "ing"
    ],
    [
      "Ġc",
      "at"
    ],
    [
      "Ġe",
      "le"
    ],
    [
      "Ġele",
      "g"
    ],
    [
      "Ġeleg",
      "an"
    ],
    [
      "Ġelegan",
      "t"
    ],
    [
      "a",
      "m"
    ],
    [
      "Ġd",
      "a"
    ],
    [
      "Ġf",
      "i"
    ],
    [
      "Ġf",
      "lo"
    ],
    [
      "Ġflo",
      "w"
    ],
    [
      "Ġflow",
      "er"
    ],
    [
      "Ġb",
      "lo"
    ],
    [
      "Ġblo",
      "o"
    ],
    [
      "Ġbloo",
      "ming"
    ],
    [
      "Ġbeauti",
      "fully"
    ],
    [
      "Ġs",
      "p"
    ],
    [
      "Ġsp",
      "ring"
    ],
    [
      "Ġe",
      "x"
    ],
    [
      "e",
      "d"
    ],
    [
      "Ġf",
      "ly"
    ],
    [
      "Ġfly",
      "ing"
    ],
    [
      "Ġac",
      "ou"
    ],
    [
      "Ġacou",
      "st"
    ],
    [
      "Ġacoust",
      "ic"
    ],
    [
      "Ġh",
      "app"
    ],
    [
      "Ġg",
      "u"
    ],
    [
      "Ġgu",
      "it"
    ],
    [
      "Ġguit",
      "ar"
    ],
    [
      "h",
      "er"
    ],
    [
      "Ġd",
      "ri"
    ],
    [
      "Ġdri",
      "ving"
    ],
    [
      "Ġs",
      "m"
    ],
    [
      "Ġsm",
      "oo"
    ],
    [
      "Ġsmoo",
      "th"
    ],
    [
      "Ġsmooth",
      "ly"
    ],
    [
      "Ġwin",
      "ding"
    ],
    [
      "Ġro",
      "ad"
    ],
    [
      "Ġbu",
      "st"
    ],
    [
      "Ġbust",
      "ling"
    ],
    [
      "Ġc",
      "it"
    ],
    [
      "Ġcit",
      "y"
    ],
    [
      "Ġf",
      "il"
    ],
    [
      "Ġfil",
      "le"
    ],
    [
      "Ġfille",
      "d"
    ],
    [
      "Ġpe",
      "op"
    ],
    [
      "Ġpeop",
      "le"
    ],
    [
      "Ġc",
      "le"
    ],
    [
      "Ġcle",
      "ar"
    ],
    [
      "Ġar",
      "tist"
    ],
    [
      "Ġpain",
      "ting"
    ],
    [
      "Ġco",
      "l"
    ],
    [
      "Ġcol",
      "or"
    ],
    [
      "Ġcolor",
      "ful"
    ],
    [
      "Ġab",
      "st"
    ],
    [
      "Ġabst",
      "rac"
    ],
    [
      "Ġabstrac",
      "t"
    ],
    [
      "Ġc",
      "an"
    ],
    [
      "Ġcan",
      "v"
    ],
    [
      "Ġcanv",
      "as"
    ],
    [
      "t",
      "u"
    ],
    [
      "Ġch",
      "il"
    ],
    [
      "Ġchil",
      "d"
    ],
    [
      "Ġ",
      "j"
    ],
    [
      "Ġj",
      "o"
    ],
    [
      "Ġjo",
      "y"
    ],
    [
      "Ġjoy",
      "fully"
    ],
    [
      "Ġre",
      "d"
    ],
    [
      "Ġb",
      "all"
    ],
    [
      "le",
      "c"
    ],
    [
      "i",
      "ent"
    ],
    [
      "Ġs",
      "a"
    ],
    [
      "Ġsa",
      "il"
    ],
    [
      "Ġsail",
      "b"
    ],
    [
      "Ġsailb",
      "o"
    ],
    [
      "Ġsailbo",
      "at"
    ],
    [
      "Ġg",
      "li"
    ],
    [
      "Ġgli",
      "ding"
    ],
    [
      "Ġac",
      "ro"
    ],
    [
      "Ġacro",
      "ss"
    ],
    [
      "Ġc",
      "al"
    ],
    [
      "Ġcal",
      "m"
    ],
    [
      "Ġwater",
      "s"
    ],
    [
      "Ġmusic",
      "ian"
    ],
    [
      "Ġsk",
      "il"
    ],
    [
      "Ġskil",
      "l"
    ],
    [
      "Ġskill",
      "fully"
    ],
    [
      "Ġdan",
      "cer"
    ],
    [
      "Ġelegant",
      "ly"
    ],
    [
      "Ġst",
      "a"
    ],
    [
      "Ġsta",
      "g"
    ],
    [
      "Ġstag",
      "e"
    ],
    [
      "m",
      "et"
    ],
    [
      "l",
      "u"
    ],
    [
      "Ġs",
      "n"
    ],
    [
      "Ġsn",
      "ow"
    ],
    [
      "Ġc",
      "l"
    ],
    [
      "Ġdo",
      "g"
    ],
    [
      "Ġhapp",
      "i"
    ],
    [
      "Ġhappi",
      "ly"
    ],
    [
      "Ġp",
      "ar"
    ],
    [
      "Ġpar",
      "k"
    ],
    [
      "Ġs",
      "unn"
    ],
    [
      "Ġsunn",
      "y"
    ],
    [
      "Ġda",
      "y"
    ],
    [
      "Ġco",
      "m"
    ],
    [
      "Ġcom",
      "for"
    ],
    [
      "Ġcomfor",
      "t"
    ],
    [
      "Ġcomfort",
      "a"
    ],
    [
      "Ġcomforta",
      "b"
    ],
    [
      "Ġcomfortab",
      "le"
    ],
    [
      "Ġc",
      "ou"
    ],
    [
      "Ġcou",
      "ch"
    ],
    [
      "Ġli",
      "ving"
    ],
    [
      "Ġro",
      "o"
    ],
    [
      "Ġroo",
      "m"
    ],
    [
      "in",
      "ing"
    ],
    [
      "e",
      "at"
    ],
    [
      "i",
      "m"
    ],
    [
      "Ġst",
      "unn"
    ],
    [
      "Ġstunn",
      "ing"
    ],
    [
      "Ġs",
      "un"
    ],
    [
      "Ġsun",
      "s"
    ],
    [
      "Ġsuns",
      "et"
    ],
    [
      "Ġo",
      "v"
    ],
    [
      "Ġov",
      "er"
    ],
    [
      "Ġp",
      "ac"
    ],
    [
      "Ġpac",
      "i"
    ],
    [
      "Ġpaci",
      "f"
    ],
    [
      "Ġpacif",
      "ic"
    ],
    [
      "Ġh",
      "or"
    ],
    [
      "Ġhor",
      "i"
    ],
    [
      "Ġhori",
      "z"
    ],
    [
      "Ġhoriz",
      "on"
    ],
    [
      "c",
      "or"
    ],
    [
      "Ġm",
      "o"
    ],
    [
      "Ġmo",
      "der"
    ],
    [
      "Ġmoder",
      "n"
    ],
    [
      "Ġo",
      "ff"
    ],
    [
      "Ġoff",
      "ic"
    ],
    [
      "Ġoffic",
      "e"
    ],
    [
      "Ġbu",
      "il"
    ],
    [
      "Ġbuil",
      "ding"
    ],
    [
      "Ġg",
      "lass"
    ],
    [
      "Ġwin",
      "d"
    ],
    [
      "Ġwind",
      "ow"
    ],
    [
      "Ġwindow",
      "s"
    ],
    [
      "o",
      "t"
    ],
    [
      "l",
      "an"
    ],
    [
      "d",
      "s"
    ],
    [
      "Ġper",
      "s"
    ],
    [
      "Ġpers",
      "on"
    ],
    [
      "Ġw",
      "al"
    ],
    [
      "Ġwal",
      "king"
    ],
    [
      "Ġpeace",
      "fully"
    ],
    [
      "rac",
      "k"
    ],
    [
      "Ġd",
      "es"
    ],
    [
      "Ġch",
      "e"
    ],
    [
      "Ġche",
      "f"
    ],
    [
      "Ġp",
      "re"
    ],
    [
      "Ġpre",
      "p"
    ],
    [
      "Ġprep",
      "ar"
    ],
    [
      "Ġprepar",
      "ing"
    ],
    [
      "Ġg",
      "ou"
    ],
    [
      "Ġgou",
      "r"
    ],
    [
      "Ġgour",
      "met"
    ],
    [
      "Ġme",
      "al"
    ],
    [
      "Ġ",
      "k"
    ],
    [
      "Ġk",
      "it"
    ],
    [
      "Ġkit",
      "ch"
    ],
    [
      "Ġkitch",
      "en"
    ],
    [
      "Ġt",
      "o"
    ],
    [
      "c",
      "app"
    ],
    [
      "capp",
      "ed"
    ],
    [
      "Ġ",
      "un"
    ],
    [
      "Ġun",
      "der"
    ],
    [
      "Ġst",
      "ar"
    ],
    [
      "Ġstar",
      "ry"
    ],
    [
      "Ġn",
      "i"
    ],
    [
      "Ġni",
      "gh"
    ],
    [
      "Ġnigh",
      "t"
    ],
    [
      "Ġb",
      "a"
    ],
    [
      "k",
      "er"
    ],
    [
      "Ġc",
      "a"
    ],
    [
      "Ġb",
      "i"
    ],
    [
      "Ġbi",
      "r"
    ],
    [
      "Ġbir",
      "d"
    ],
    [
      "Ġg",
      "rac"
    ],
    [
      "Ġgrac",
      "e"
    ],
    [
      "Ġgrace",
      "fully"
    ],
    [
      "Ġb",
      "lu"
    ],
    [
      "Ġblu",
      "e"
    ],
    [
      "Ġli",
      "b"
    ],
    [
      "Ġlib",
      "r"
    ],
    [
      "Ġlibr",
      "ar"
    ],
    [
      "Ġlibrar",
      "y"
    ],
    [
      "Ġsh",
      "el"
    ],
    [
      "Ġshel",
      "v"
    ],
    [
      "Ġshelv",
      "es"
    ],
    [
      "Ġo",
      "f"
    ],
    [
      "Ġo",
      "l"
    ],
    [
      "Ġol",
      "d"
    ],
    [
      "Ġb",
      "oo"
    ],
    [
      "Ġboo",
      "k"
    ],
    [
      "Ġbook",
      "s"
    ],
    [
      "p",
      "er"
    ],
    [
      "o",
      "ve"
    ],
    [
      "Ġpeace",
      "ful"
    ],
    [
      "Ġla",
      "ke"
    ],
    [
      "Ġre",
      "f"
    ],
    [
      "Ġref",
      "lec"
    ],
    [
      "Ġreflec",
      "ting"
    ],
    [
      "Ġa",
      "u"
    ],
    [
      "Ġau",
      "tu"
    ],
    [
      "Ġautu",
      "m"
    ],
    [
      "Ġautum",
      "n"
    ],
    [
      "Ġtre",
      "es"
    ],
    [
      "ss",
      "i"
    ],
    [
      "Ġt",
      "all"
    ],
    [
      "Ġtre",
      "e"
    ],
    [
      "Ġsw",
      "a"
    ],
    [
      "Ġswa",
      "ying"
    ],
    [
      "Ġg",
      "ent"
    ],
    [
      "Ġgent",
      "ly"
    ],
    [
      "Ġb",
      "re"
    ],
    [
      "Ġbre",
      "e"
    ],
    [
      "Ġbree",
      "z"
    ],
    [
      "Ġbreez",
      "e"
    ],
    [
      "Ġc",
      "on"
    ],
    [
      "Ġco",
      "z"
    ],
    [
      "Ġcoz",
      "y"
    ],
    [
      "Ġco",
      "ff"
    ],
    [
      "Ġcoff",
      "e"
    ],
    [
      "Ġcoffe",
      "e"
    ],
    [
      "Ġsh",
      "op"
    ],
    [
      "Ġli",
      "gh"
    ],
    [
      "Ġligh",
      "ting"
    ],
    [
      "i",
      "d"
    ],
    [
      "Ġd",
      "e"
    ],
    [
      "Ġp",
      "h"
    ],
    [
      "v",
      "i"
    ],
    [
      "Ġw",
      "r"
    ],
    [
      "Ġwr",
      "it"
    ],
    [
      "Ġwrit",
      "er"
    ],
    [
      "Ġt",
      "y"
    ],
    [
      "Ġty",
      "p"
    ],
    [
      "Ġtyp",
      "ing"
    ],
    [
      "Ġn",
      "o"
    ],
    [
      "Ġno",
      "v"
    ],
    [
      "Ġnov",
      "el"
    ],
    [
      "Ġdes",
      "k"
    ],
    [
      "Ġs",
      "u"
    ],
    [
      "ro",
      "n"
    ],
    [
      "lass",
      "ic"
    ],
    [
      "Ġme",
      "lo"
    ],
    [
      "Ġmelo",
      "d"
    ],
    [
      "Ġmelod",
      "y"
    ],
    [
      "Ġs",
      "o"
    ],
    [
      "en",
      "ding"
    ],
    [
      "st",
      "or"
    ],
    [
      "g",
      "g"
    ],
    [
      "Ġdo",
      "c"
    ],
    [
      "Ġdoc",
      "t"
    ],
    [
      "Ġdoct",
      "or"
    ],
    [
      "Ġex",
      "am"
    ],
    [
      "Ġexam",
      "ining"
    ],
    [
      "Ġp",
      "at"
    ],
    [
      "Ġpat",
      "ient"
    ],
    [
      "Ġcl",
      "in"
    ],
    [
      "Ġclin",
      "ic"
    ],
    [
      "g",
      "r"
    ],
    [
      "Ġd",
      "i"
    ],
    [
      "Ġ",
      "ri"
    ],
    [
      "Ġm",
      "a"
    ],
    [
      "ssi",
      "ve"
    ],
    [
      "Ġ",
      "ke"
    ],
    [
      "Ġke",
      "y"
    ],
    [
      "Ġc",
      "am"
    ],
    [
      "Ġcam",
      "per"
    ],
    [
      "Ġb",
      "y"
    ],
    [
      "Ġc",
      "rack"
    ],
    [
      "Ġcrack",
      "ling"
    ],
    [
      "Ġfi",
      "re"
    ],
    [
      "ount",
      "ry"
    ],
    [
      "ac",
      "k"
    ],
    [
      "Ġp",
      "il"
    ],
    [
      "Ġpil",
      "ot"
    ],
    [
      "Ġp",
      "lan"
    ],
    [
      "Ġplan",
      "e"
    ],
    [
      "Ġab",
      "ove"
    ],
    [
      "Ġcl",
      "ou"
    ],
    [
      "Ġclou",
      "ds"
    ],
    [
      "Ġf",
      "arm"
    ],
    [
      "Ġfarm",
      "er"
    ],
    [
      "Ġw",
      "or"
    ],
    [
      "Ġwor",
      "king"
    ],
    [
      "Ġg",
      "ol"
    ],
    [
      "Ġgol",
      "den"
    ],
    [
      "Ġw",
      "h"
    ],
    [
      "Ġwh",
      "eat"
    ],
    [
      "Ġfi",
      "el"
    ],
    [
      "Ġfiel",
      "d"
    ],
    [
      "Ġt",
      "e"
    ],
    [
      "Ġte",
      "ac"
    ],
    [
      "Ġteac",
      "her"
    ],
    [
      "Ġex",
      "p"
    ],
    [
      "Ġexp",
      "la"
    ],
    [
      "Ġexpla",
      "ining"
    ],
    [
      "Ġ",
      "le"
    ],
    [
      "Ġle",
      "ss"
    ],
    [
      "Ġless",
      "on"
    ],
    [
      "Ġst",
      "u"
    ],
    [
      "Ġstu",
      "den"
    ],
    [
      "Ġstuden",
      "t"
    ],
    [
      "Ġstudent",
      "s"
    ],
    [
      "Ġba",
      "ker"
    ],
    [
      "Ġde",
      "cor"
    ],
    [
      "Ġdecor",
      "at"
    ],
    [
      "Ġdecorat",
      "ing"
    ],
    [
      "Ġw",
      "ed"
    ],
    [
      "Ġwed",
      "ding"
    ],
    [
      "Ġca",
      "ke"
    ],
    [
      "Ġso",
      "c"
    ],
    [
      "Ġsoc",
      "cer"
    ],
    [
      "Ġpla",
      "y"
    ],
    [
      "Ġplay",
      "er"
    ],
    [
      "Ġs",
      "cor"
    ],
    [
      "Ġscor",
      "ing"
    ],
    [
      "Ġwin",
      "n"
    ],
    [
      "Ġwinn",
      "ing"
    ],
    [
      "Ġg",
      "o"
    ],
    [
      "Ġgo",
      "al"
    ],
    [
      "Ġs",
      "ing"
    ],
    [
      "Ġsing",
      "er"
    ],
    [
      "Ġs",
      "ol"
    ],
    [
      "Ġsol",
      "d"
    ],
    [
      "ou",
      "t"
    ],
    [
      "Ġcon",
      "cer"
    ],
    [
      "Ġconcer",
      "t"
    ],
    [
      "Ġpain",
      "t"
    ],
    [
      "Ġpaint",
      "er"
    ],
    [
      "Ġre",
      "stor"
    ],
    [
      "Ġrestor",
      "ing"
    ],
    [
      "Ġan",
      "c"
    ],
    [
      "Ġanc",
      "ient"
    ],
    [
      "Ġar",
      "t"
    ],
    [
      "Ġart",
      "w"
    ],
    [
      "Ġartw",
      "or"
    ],
    [
      "Ġartwor",
      "k"
    ],
    [
      "at",
      "i"
    ],
    [
      "ati",
      "on"
    ],
    [
      "Ġsw",
      "im"
    ],
    [
      "Ġswim",
      "m"
    ],
    [
      "Ġswimm",
      "er"
    ],
    [
      "Ġdi",
      "ving"
    ],
    [
      "Ġin",
      "t"
    ],
    [
      "Ġint",
      "o"
    ],
    [
      "Ġc",
      "ry"
    ],
    [
      "Ġcry",
      "st"
    ],
    [
      "Ġcryst",
      "al"
    ],
    [
      "Ġph",
      "ot"
    ],
    [
      "Ġphot",
      "o"
    ],
    [
      "Ġphoto",
      "gr"
    ],
    [
      "Ġphotogr",
      "ap"
    ],
    [
      "Ġphotograp",
      "her"
    ],
    [
      "Ġc",
      "ap"
    ],
    [
      "Ġcap",
      "tu"
    ],
    [
      "Ġcaptu",
      "ring"
    ],
    [
      "Ġbeauti",
      "ful"
    ],
    [
      "Ġ",
      "lan"
    ],
    [
      "Ġlan",
      "ds"
    ],
    [
      "Ġlands",
      "c"
    ],
    [
      "Ġlandsc",
      "ap"
    ],
    [
      "Ġlandscap",
      "e"
    ],
    [
      "p",
      "op"
    ],
    [
      "Ġb",
      "al"
    ],
    [
      "Ġbal",
      "la"
    ],
    [
      "Ġballa",
      "d"
    ],
    [
      "Ġcat",
      "ch"
    ],
    [
      "Ġcatch",
      "y"
    ],
    [
      "ti",
      "on"
    ],
    [
      "Ġgarden",
      "er"
    ],
    [
      "Ġt",
      "ending"
    ],
    [
      "Ġro",
      "s"
    ],
    [
      "Ġros",
      "e"
    ],
    [
      "Ġbu",
      "s"
    ],
    [
      "Ġbus",
      "h"
    ],
    [
      "Ġbush",
      "es"
    ],
    [
      "Ġc",
      "y"
    ],
    [
      "Ġcy",
      "c"
    ],
    [
      "Ġcyc",
      "li"
    ],
    [
      "Ġcycli",
      "st"
    ],
    [
      "Ġ",
      "rac"
    ],
    [
      "Ġrac",
      "ing"
    ],
    [
      "Ġth",
      "r"
    ],
    [
      "Ġthr",
      "ou"
    ],
    [
      "Ġthrou",
      "gh"
    ],
    [
      "Ġc",
      "ountry"
    ],
    [
      "Ġcountry",
      "s"
    ],
    [
      "Ġcountrys",
      "id"
    ],
    [
      "Ġcountrysid",
      "e"
    ],
    [
      "re",
      "gg"
    ],
    [
      "regg",
      "a"
    ],
    [
      "regga",
      "e"
    ],
    [
      "Ġt",
      "rack"
    ],
    [
      "Ġla",
      "id"
    ],
    [
      "b",
      "ack"
    ],
    [
      "Ġ",
      "vi"
    ],
    [
      "Ġvi",
      "b"
    ],
    [
      "Ġvib",
      "es"
    ],
    [
      "e",
      "lec"
    ],
    [
      "elec",
      "t"
    ],
    [
      "elect",
      "ron"
    ],
    [
      "electron",
      "ic"
    ],
    [
      "Ġdan",
      "ce"
    ],
    [
      "Ġh",
      "ea"
    ],
    [
      "Ġhea",
      "v"
    ],
    [
      "Ġheav",
      "y"
    ],
    [
      "Ġba",
      "ss"
    ],
    [
      "Ġh",
      "i"
    ],
    [
      "Ġhi",
      "ker"
    ],
    [
      "Ġre",
      "ac"
    ],
    [
      "Ġreac",
      "h"
    ],
    [
      "Ġreach",
      "ing"
    ],
    [
      "Ġsu",
      "m"
    ],
    [
      "Ġsum",
      "m"
    ],
    [
      "Ġsumm",
      "it"
    ],
    [
      "Ġfi",
      "s"
    ],
    [
      "Ġfis",
      "her"
    ],
    [
      "Ġfisher",
      "m"
    ],
    [
      "Ġfisherm",
      "an"
    ],
    [
      "Ġca",
      "st"
    ],
    [
      "Ġcast",
      "ing"
    ],
    [
      "Ġ",
      "l"
    ],
    [
      "Ġl",
      "in"
    ],
    [
      "Ġlin",
      "e"
    ],
    [
      "Ġda",
      "w"
    ],
    [
      "Ġdaw",
      "n"
    ],
    [
      "Ġme",
      "ch"
    ],
    [
      "Ġmech",
      "an"
    ],
    [
      "Ġmechan",
      "ic"
    ],
    [
      "Ġre",
      "p"
    ],
    [
      "Ġrep",
      "a"
    ],
    [
      "Ġrepa",
      "i"
    ],
    [
      "Ġrepai",
      "ring"
    ],
    [
      "Ġc",
      "lassic"
    ],
    [
      "Ġsu",
      "r"
    ],
    [
      "Ġsur",
      "f"
    ],
    [
      "Ġsurf",
      "er"
    ],
    [
      "Ġri",
      "ding"
    ],
    [
      "Ġma",
      "ssive"
    ],
    [
      "Ġw",
      "a"
    ],
    [
      "Ġwa",
      "ve"
    ],
    [
      "Ġs",
      "on"
    ],
    [
      "Ġson",
      "g"
    ],
    [
      "Ġst",
      "or"
    ],
    [
      "Ġstor",
      "y"
    ],
    [
      "Ġstory",
      "t"
    ],
    [
      "Ġstoryt",
      "el"
    ],
    [
      "Ġstorytel",
      "ling"
    ],
    [
      "Ġs",
      "ad"
    ],
    [
      "Ġm",
      "el"
    ],
    [
      "Ġmel",
      "an"
    ],
    [
      "Ġmelan",
      "ch"
    ],
    [
      "Ġmelanch",
      "ol"
    ],
    [
      "Ġmelanchol",
      "ic"
    ],
    [
      "Ġt",
      "un"
    ],
    [
      "Ġtun",
      "e"
    ],
    [
      "Ġm",
      "in"
    ],
    [
      "Ġmin",
      "or"
    ],
    [
      "j",
      "a"
    ],
    [
      "ja",
      "z"
    ],
    [
      "jaz",
      "z"
    ],
    [
      "Ġ",
      "im"
    ],
    [
      "Ġim",
      "p"
    ],
    [
      "Ġimp",
      "ro"
    ],
    [
      "Ġimpro",
      "vi"
    ],
    [
      "Ġimprovi",
      "s"
    ],
    [
      "Ġimprovis",
      "ation"
    ],
    [
      "Ġsw",
      "ing"
    ],
    [
      "Ġ",
      "r"
    ],
    [
      "Ġr",
      "h"
    ],
    [
      "Ġrh",
      "y"
    ],
    [
      "Ġrhy",
      "th"
    ],
    [
      "Ġrhyth",
      "m"
    ],
    [
      "h",
      "i"
    ],
    [
      "hi",
      "p"
    ],
    [
      "Ġh",
      "op"
    ],
    [
      "Ġb",
      "eat"
    ],
    [
      "Ġst",
      "ron"
    ],
    [
      "Ġstron",
      "g"
    ],
    [
      "Ġg",
      "ro"
    ],
    [
      "Ġgro",
      "ove"
    ],
    [
      "Ġs",
      "c"
    ],
    [
      "Ġsc",
      "i"
    ],
    [
      "Ġsci",
      "en"
    ],
    [
      "Ġscien",
      "tist"
    ],
    [
      "Ġcon",
      "d"
    ],
    [
      "Ġcond",
      "u"
    ],
    [
      "Ġcondu",
      "c"
    ],
    [
      "Ġconduc",
      "ting"
    ],
    [
      "Ġex",
      "per"
    ],
    [
      "Ġexper",
      "im"
    ],
    [
      "Ġexperim",
      "ent"
    ],
    [
      "Ġla",
      "b"
    ],
    [
      "c",
      "lassic"
    ],
    [
      "classic",
      "al"
    ],
    [
      "Ġp",
      "ian"
    ],
    [
      "Ġpian",
      "o"
    ],
    [
      "Ġp",
      "i"
    ],
    [
      "Ġpi",
      "e"
    ],
    [
      "Ġpie",
      "ce"
    ],
    [
      "Ġph",
      "r"
    ],
    [
      "Ġphr",
      "as"
    ],
    [
      "Ġphras",
      "ing"
    ],
    [
      "b",
      "lu"
    ],
    [
      "blu",
      "es"
    ],
    [
      "Ġp",
      "ro"
    ],
    [
      "Ġpro",
      "g"
    ],
    [
      "Ġprog",
      "re"
    ],
    [
      "Ġprogre",
      "ssi"
    ],
    [
      "Ġprogressi",
      "on"
    ],
    [
      "Ġe",
      "m"
    ],
    [
      "Ġem",
      "o"
    ],
    [
      "Ġemo",
      "tion"
    ],
    [
      "Ġemotion",
      "al"
    ],
    [
      "Ġde",
      "p"
    ],
    [
      "Ġdep",
      "th"
    ],
    [
      "Ġhapp",
      "y"
    ],
    [
      "Ġ",
      "u"
    ],
    [
      "Ġu",
      "p"
    ],
    [
      "Ġup",
      "b"
    ],
    [
      "Ġupb",
      "eat"
    ],
    [
      "Ġma",
      "j"
    ],
    [
      "Ġmaj",
      "or"
    ],
    [
      "or",
      "ch"
    ],
    [
      "orch",
      "e"
    ],
    [
      "orche",
      "st"
    ],
    [
      "orchest",
      "r"
    ],
    [
      "orchestr",
      "al"
    ],
    [
      "Ġs",
      "y"
    ],
    [
      "Ġsy",
      "m"
    ],
    [
      "Ġsym",
      "p"
    ],
    [
      "Ġsymp",
      "h"
    ],
    [
      "Ġsymph",
      "on"
    ],
    [
      "Ġsymphon",
      "y"
    ],
    [
      "Ġd",
      "r"
    ],
    [
      "Ġdr",
      "am"
    ],
    [
      "Ġdram",
      "at"
    ],
    [
      "Ġdramat",
      "ic"
    ],
    [
      "Ġsw",
      "el"
    ],
    [
      "Ġswel",
      "l"
    ],
    [
      "Ġswell",
      "s"
    ],
    [
      "Ġsk",
      "i"
    ],
    [
      "Ġski",
      "er"
    ],
    [
      "Ġdes",
      "c"
    ],
    [
      "Ġdesc",
      "ending"
    ],
    [
      "Ġsnow",
      "y"
    ],
    [
      "Ġs",
      "lo"
    ],
    [
      "Ġslo",
      "p"
    ],
    [
      "Ġslop",
      "e"
    ],
    [
      "met",
      "al"
    ],
    [
      "Ġri",
      "ff"
    ],
    [
      "Ġa",
      "gg"
    ],
    [
      "Ġagg",
      "re"
    ],
    [
      "Ġaggre",
      "ssive"
    ],
    [
      "Ġ",
      "en"
    ],
    [
      "Ġen",
      "er"
    ],
    [
      "Ġener",
      "g"
    ],
    [
      "Ġenerg",
      "y"
    ],
    [
      "f",
      "ol"
    ],
    [
      "fol",
      "k"
    ],
    [
      "c",
      "ountry"
    ],
    [
      "Ġ",
      "ly"
    ],
    [
      "Ġly",
      "r"
    ],
    [
      "Ġlyr",
      "ic"
    ],
    [
      "Ġlyric",
      "s"
    ],
    [
      "am",
      "b"
    ],
    [
      "amb",
      "ient"
    ],
    [
      "Ġb",
      "ack"
    ],
    [
      "Ġback",
      "gr"
    ],
    [
      "Ġbackgr",
      "oun"
    ],
    [
      "Ġbackgroun",
      "d"
    ],
    [
      "Ġf",
      "or"
    ],
    [
      "Ġme",
      "d"
    ],
    [
      "Ġmed",
      "it"
    ],
    [
      "Ġmedit",
      "ation"
    ],
    [
      "ro",
      "c"
    ],
    [
      "roc",
      "k"
    ],
    [
      "Ġso",
      "lo"
    ],
    [
      "Ġdi",
      "stor"
    ],
    [
      "Ġdistor",
      "tion"
    ]
  ],
  "vocab": [
    "Ġcomforta",
    "Ġlands",
    "Ġrestoring",
    "Ġsunny",
    "Ġcyclist",
    "Ġwheat",
    "Ġstoryt",
    "Ġty",
    "Ġfiel",
    "Ġoffice",
    "Ġche",
    "Ġstarry",
    "Ġday",
    "x",
    "Ġenergy",
    "Ġfille",
    "ambient",
    "Ġphras",
    "Ġexplaining",
    "folk",
    "Ġen",
    "Ġbre",
    "Ġmeditation",
    "Ġm",
    "Ġwind",
    "Ġbreez",
    "Ġclouds",
    "Ġpie",
    "Ġdram",
    "orch",
    "Ġbloo",
    "Ġwith",
    "Ġmedit",
    "Ġcanv",
    "Ġsailb",
    "Ġsit",
    "Ġgu",
    "Ġdesc",
    "Ġbu",
    "Ġbi",
    "Ġbeautiful",
    "Ġgrac",
    "Ġwal",
    "Ġabst",
    "Ġh",
    "Ġskillfully",
    "Ġslope",
    "den",
    "Ġcondu",
    "Ġgrace",
    "oo",
    "Ġupb",
    "Ġso",
    "Ġpilot",
    "it",
    "Ġsc",
    "Ġmountain",
    "Ġchil",
    "Ġsymph",
    "Ġab",
    "Ġgently",
    "Ġdi",
    "Ġbooks",
    "Ġshelv",
    "Ġfly",
    "Ġball",
    "Ġflow",
    "Ġunder",
    "Ġbree",
    "Ġbird",
    "Ġup",
    "Ġroad",
    "Ġbushes",
    "Ġbush",
    "Ġcy",
    "Ġbook",
    "Ġdance",
    "Ġacoust",
    "ro",
    "Ġca",
    "Ġprogre",
    "Ġtun",
    "Ġener",
    "Ġwat",
    "Ġfil",
    "Ġsnow",
    "Ġdo",
    "Ġ",
    "Ġcomfortab",
    "Ġson",
    "ea",
    "Ġbeautifully",
    "Ġsh",
    "Ġteac",
    "ar",
    "Ġcaptu",
    "Ġacro",
    "blu",
    "Ġrepa",
    "Ġsw",
    "Ġpeacefully",
    "Ġlib",
    "Ġpil",
    "Ġri",
    "Ġpeace",
    "Ġbaker",
    "ron",
    "Ġdecorat",
    "ting",
    "ing",
    "Ġfire",
    "Ġexamining",
    "Ġexperiment",
    "Ġfarm",
    "Ġmed",
    "Ġgou",
    "Ġabstract",
    "jazz",
    "Ġdan",
    "tu",
    "Ġtyping",
    "Ġrose",
    "classical",
    "Ġblo",
    "Ġmelancholic",
    "Ġstag",
    "Ġgol",
    "d",
    "Ġperfor",
    "Ġwinning",
    "Ġcol",
    "Ġly",
    "elec",
    "unn",
    "Ġbackground",
    "Ġcasting",
    "Ġslo",
    "k",
    "Ġstudent",
    "in",
    "Ġvibes",
    "la",
    "ad",
    "Ġmus",
    "ending",
    "Ġdoct",
    "Ġpaci",
    "Ġjo",
    "Ġar",
    "Ġconduc",
    "Ġcomfor",
    "Ġwindow",
    "Ġblu",
    "orchestral",
    "jaz",
    "Ġpe",
    "ful",
    "Ġswa",
    "gg",
    "id",
    "fol",
    "Ġold",
    "Ġn",
    "g",
    "Ġele",
    "Ġguit",
    "Ġmo",
    "Ġanc",
    "Ġqui",
    "Ġnovel",
    "Ġautumn",
    "Ġexperim",
    "Ġstar",
    "es",
    "Ġsailboat",
    "Ġsmoo",
    "Ġgourmet",
    "Ġwrit",
    "Ġbreeze",
    "Ġwinn",
    "ol",
    "Ġmin",
    "Ġbuil",
    "Ġlandsc",
    "orche",
    "her",
    "Ġac",
    "Ġpaint",
    "Ġan",
    "Ġsunset",
    "Ġsunn",
    "ic",
    "th",
    "re",
    "Ġs",
    "ac",
    "Ġmassive",
    "Ġballa",
    "Ġmusic",
    "Ġspring",
    "Ġblue",
    "Ġroom",
    "li",
    "Ġun",
    "Ġimprovi",
    "Ġkit",
    "Ġrh",
    "cor",
    "Ġfarmer",
    "Ġcyc",
    "Ġacross",
    "Ġartist",
    "Ġreaching",
    "elect",
    "regg",
    "gr",
    "metal",
    "Ġplaying",
    "Ġb",
    "Ġballad",
    "Ġpeop",
    "Ġdr",
    "Ġstage",
    "Ġsoc",
    "Ġq",
    "ation",
    "Ġemo",
    "tion",
    "Ġfis",
    "Ġgliding",
    "Ġno",
    "Ġmoder",
    "Ġhappi",
    "Ġbeau",
    "Ġenerg",
    "Ġprepar",
    "Ġphrasing",
    "Ġskill",
    "Ġpreparing",
    "Ġinto",
    "Ġbustling",
    "Ġau",
    "Ġbackgr",
    "Ġmelan",
    "ri",
    "Ġsumm",
    "Ġlaid",
    "Ġperforming",
    "q",
    "Ġstuden",
    "ss",
    "t",
    "Ġdecorating",
    "Ġtrack",
    "lo",
    "Ġskil",
    "Ġwaters",
    "Ġreac",
    "al",
    "Ġdesk",
    "j",
    "Ġteacher",
    "Ġemotion",
    "Ġmelanchol",
    "Ġme",
    "Ġcou",
    "Ġfilled",
    "Ġdes",
    "Ġhappy",
    "Ġswing",
    "Ġover",
    "Ġsailbo",
    "rack",
    "gh",
    "Ġwalking",
    "Ġol",
    "et",
    "Ġgroove",
    "Ġpro",
    "lu",
    "Ġpeople",
    "Ġhor",
    "Ġsur",
    "Ġelegant",
    "Ġdistor",
    "ve",
    "ds",
    "Ġtrees",
    "Ġagg",
    "Ġperson",
    "Ġsummit",
    "Ġcoff",
    "Ġplayer",
    "Ġli",
    "Ġglass",
    "Ġbea",
    "Ġstron",
    "Ġda",
    "Ġlake",
    "ming",
    "Ġma",
    "Ġbir",
    "Ġsoccer",
    "Ġcountrysid",
    "Ġheavy",
    "Ġclassic",
    "Ġcake",
    "Ġnigh",
    "Ġlighting",
    "Ġgro",
    "Ġmodern",
    "Ġw",
    "il",
    "Ġsitting",
    "Ġfisherman",
    "rock",
    "Ġsy",
    "Ġstreet",
    "y",
    "pop",
    "Ġdistortion",
    "Ġa",
    "Ġle",
    "Ġgardener",
    "Ġshel",
    "Ġmelod",
    "ff",
    "Ġstudents",
    "king",
    "Ġro",
    "Ġartwork",
    "Ġstre",
    "Ġgracefully",
    "Ġaggre",
    "Ġmu",
    "Ġreflecting",
    "ient",
    "Ġwin",
    "Ġkitch",
    "electronic",
    "Ġbeauti",
    "hip",
    "Ġsu",
    "Ġliving",
    "Ġflying",
    "Ġcatch",
    "Ġdep",
    "Ġper",
    "Ġpain",
    "a",
    "Ġcom",
    "Ġl",
    "Ġpre",
    "Ġaggressive",
    "n",
    "ssi",
    "en",
    "Ġcal",
    "Ġocean",
    "h",
    "Ġg",
    "Ġcapturing",
    "Ġfi",
    "Ġlandscap",
    "Ġhiker",
    "Ġthrou",
    "Ġswell",
    "Ġre",
    "Ġemotional",
    "Ġth",
    "ja",
    "Ġcl",
    "Ġsymp",
    "Ġphotographer",
    "Ġpers",
    "Ġf",
    "ding",
    "u",
    "orchestr",
    "Ġflo",
    "Ġlibr",
    "Ġplan",
    "Ġsol",
    "Ġwa",
    "Ġshelves",
    "reggae",
    "Ġblooming",
    "Ġcoz",
    "o",
    "ring",
    "Ġpainting",
    "Ġelegantly",
    "Ġprogressi",
    "Ġsnowy",
    "Ġcolor",
    "Ġbus",
    "cer",
    "Ġmelody",
    "Ġint",
    "ain",
    "v",
    "ker",
    "Ġcity",
    "ry",
    "Ġin",
    "Ġrac",
    "Ġconcert",
    "Ġmelanch",
    "Ġcan",
    "<mask>",
    "Ġcountrys",
    "Ġlibrar",
    "Ġfor",
    "Ġhi",
    "Ġdoc",
    "Ġch",
    "Ġfisher",
    "lec",
    "Ġex",
    "Ġsymphon",
    "Ġroo",
    "Ġwr",
    "m",
    "Ġwi",
    "Ġpacific",
    "Ġbal",
    "Ġracing",
    "Ġhapp",
    "Ġpark",
    "Ġminor",
    "Ġby",
    "Ġon",
    "<bos>",
    "Ġst",
    "arm",
    "Ġdawn",
    "i",
    "Ġcrack",
    "Ġgarden",
    "Ġqu",
    "Ġpacif",
    "Ġsurf",
    "Ġprog",
    "Ġimpro",
    "Ġoffic",
    "Ġchef",
    "Ġe",
    "Ġrepai",
    "Ġclinic",
    "Ġwh",
    "f",
    "Ġsky",
    "Ġte",
    "Ġcolorful",
    "Ġsurfer",
    "Ġcomfort",
    "Ġnov",
    "p",
    "Ġcouch",
    "Ġworking",
    "Ġpainter",
    "Ġo",
    "Ġguitar",
    "blues",
    "met",
    "Ġcam",
    "lass",
    "Ġsa",
    "Ġartw",
    "Ġlan",
    "Ġc",
    "Ġpat",
    "Ġupbeat",
    "Ġstunn",
    "Ġjoy",
    "Ġke",
    "Ġcountry",
    "Ġstunning",
    "Ġreach",
    "Ġcar",
    "Ġclin",
    "Ġto",
    "Ġstor",
    "Ġswaying",
    "Ġphotograp",
    "Ġem",
    "Ġwindows",
    "oun",
    "Ġswimmer",
    "Ġsta",
    "el",
    "Ġstu",
    "Ġlyric",
    "ati",
    "Ġmechan",
    "Ġreflec",
    "Ġjoyfully",
    "Ġfisherm",
    "Ġhop",
    "Ġbeat",
    "ying",
    "Ġmount",
    "Ġswim",
    "Ġsymphony",
    "Ġrepairing",
    "un",
    "Ġsun",
    "at",
    "Ġphot",
    "Ġstory",
    "Ġstrong",
    "<unk>",
    "Ġlesson",
    "orchest",
    "Ġla",
    "ount",
    "Ġcond",
    "Ġlin",
    "Ġcast",
    "r",
    "Ġswimm",
    "e",
    "or",
    "ssive",
    "Ġmaj",
    "Ġelegan",
    "Ġback",
    "capp",
    "Ġcat",
    "Ġred",
    "Ġsn",
    "im",
    "Ġlandscape",
    "Ġpeaceful",
    "Ġmajor",
    "ent",
    "ti",
    "Ġeleg",
    "Ġcap",
    "Ġlyrics",
    "Ġwor",
    "Ġacou",
    "country",
    "Ġexpla",
    "Ġoff",
    "Ġautu",
    "Ġof",
    "Ġconducting",
    "electron",
    "Ġimp",
    "st",
    "Ġtune",
    "Ġwater",
    "Ġpian",
    "Ġacoustic",
    "Ġexam",
    "Ġscor",
    "Ġcry",
    "Ġscien",
    "classic",
    "as",
    "Ġsad",
    "Ġmel",
    "hi",
    "op",
    "Ġgolden",
    "Ġtending",
    "Ġdriving",
    "Ġhori",
    "Ġkitchen",
    "Ġlab",
    "Ġclear",
    "Ġtre",
    "Ġmeal",
    "Ġsci",
    "lan",
    "Ġthrough",
    "Ġhappily",
    "Ġdancer",
    "Ġlibrary",
    "Ġnight",
    "Ġfield",
    "Ġcoffe",
    "Ġco",
    "Ġquiet",
    "Ġwarm",
    "c",
    "Ġscoring",
    "z",
    "Ġdramat",
    "amb",
    "Ġpi",
    "Ġsinger",
    "Ġthr",
    "Ġplay",
    "Ġphotogr",
    "Ġtree",
    "Ġpac",
    "b",
    "regga",
    "for",
    "<eos>",
    "ke",
    "Ġdoctor",
    "ack",
    "l",
    "Ġski",
    "rac",
    "per",
    "Ġslop",
    "an",
    "out",
    "Ġrep",
    "ap",
    "Ġcoffee",
    "<pad>",
    "Ġligh",
    "Ġsing",
    "Ġcountryside",
    "Ġdaw",
    "Ġsm",
    "stor",
    "Ġkey",
    "Ġsym",
    "Ġprep",
    "Ġde",
    "Ġart",
    "Ġriff",
    "Ġphr",
    "Ġpla",
    "w",
    "ow",
    "Ġcalm",
    "der",
    "Ġrhyth",
    "Ġsong",
    "Ġstorytelling",
    "Ġdescending",
    "capped",
    "Ġbass",
    "Ġcycli",
    "Ġflower",
    "s",
    "Ġdepth",
    "Ġvi",
    "Ġabove",
    "Ġriding",
    "ed",
    "Ġmechanic",
    "Ġp",
    "er",
    "Ġrestor",
    "Ġhoriz",
    "Ġswel",
    "Ġcon",
    "Ġimprovisation",
    "Ġcomfortable",
    "Ġu",
    "Ġwave",
    "Ġbuilding",
    "Ġcrackling",
    "Ġgent",
    "Ġpeac",
    "Ġexper",
    "Ġni",
    "Ġpar",
    "Ġpatient",
    "ian",
    "Ġless",
    "Ġr",
    "Ġgoal",
    "am",
    "Ġboo",
    "Ġautum",
    "back",
    "vi",
    "Ġpiano",
    "Ġlyr",
    "Ġsold",
    "Ġstorytel",
    "Ġim",
    "ining",
    "Ġplane",
    "Ġk",
    "Ġwriter",
    "Ġprogression",
    "Ġoce",
    "Ġexp",
    "Ġdri",
    "Ġba",
    "Ġt",
    "Ġcanvas",
    "ove",
    "Ġgo",
    "Ġdiving",
    "ving",
    "Ġsmoothly",
    "ountry",
    "Ġhea",
    "ling",
    "Ġcryst",
    "lassic",
    "Ġheav",
    "Ġabstrac",
    "Ġros",
    "Ġbust",
    "Ġtyp",
    "Ġsp",
    "Ġref",
    "tist",
    "Ġsum",
    "ce",
    "Ġov",
    "Ġrhy",
    "Ġtall",
    "Ġsmooth",
    "Ġdramatic",
    "Ġdog",
    "Ġat",
    "Ġdecor",
    "Ġconcer",
    "Ġphoto",
    "Ġancient",
    "Ġrhythm",
    "Ġhorizon",
    "Ġsolo",
    "Ġline",
    "Ġmelo",
    "Ġartwor",
    "all",
    "Ġshop",
    "Ġchild",
    "Ġmech",
    "ou",
    "fu",
    "Ġgli",
    "eat",
    "Ġvib",
    "Ġswells",
    "ch",
    "Ġph",
    "Ġpiece",
    "Ġscientist",
    "Ġwed",
    "ly",
    "Ġbackgroun",
    "Ġclou",
    "Ġgour",
    "ot",
    "Ġcrystal",
    "app",
    "Ġj",
    "Ġd",
    "Ġcamper",
    "Ġcit",
    "Ġthe",
    "on",
    "-",
    "Ġwinding",
    "Ġsk",
    "Ġsuns",
    "Ġcozy",
    "Ġsail",
    "fully",
    "roc",
    "Ġskier",
    "Ġcle",
    "Ġcatchy",
    "Ġgar",
    "Ġwedding",
    "Ġmusician",
    "Ġimprovis",
    "le"
  ]
}